TRT-8401-EntropyCalibration2
input.1: 3fff1010
225: 417320b1
148: 40fc4c56
228: 41a4df6e
151: 41303791
231: 419ca79b
154: 413e7c9c
234: 41a0db45
157: 4154a0e2
237: 419b4d0a
160: 414ad3b1
240: 419697fe
163: 415207bd
243: 41afe201
166: 414db6a6
246: 418eeed5
169: 412120de
249: 414d9b1f
172: 40fd6430
252: 41888999
175: 40f101ab
255: 4150287d
178: 40fd3529
258: 411f2837
181: 40c84544
261: 415934db
184: 40ff6794
264: 41451136
187: 40e3f29f
267: 41004a95
190: 40a9efb0
270: 40df4c3d
193: 407d0015
273: 41029299
196: 4086ce56
276: 4085213e
199: 404bb434
279: 40d5409e
202: 404d1bee
282: 40bb55e5
205: 406155b2
285: 409cd968
208: 40889634
288: 40d2ba81
211: 409e1276
291: 40cb5250
214: 408e3de5
294: 40731fc6
217: 4032e175
218: 4071b63e
220: 4071b63e
221: 3e852644
222: 3c010a14
223: 3c010a14
224: 3c010a14
